#ifndef SINE_MODEL_H
#define SINE_MODEL_H


unsigned int sine_model_len = 3152;
unsigned char sine_model[] = {
 0x1c, 0x00, 0x00, 0x00, 0x54, 0x46, 0x4c, 0x33, 0x14, 0x00, 0x20, 0x00,
  0x1c, 0x00, 0x18, 0x00, 0x14, 0x00, 0x10, 0x00, 0x0c, 0x00, 0x00, 0x00,
  0x08, 0x00, 0x04, 0x00, 0x14, 0x00, 0x00, 0x00, 0x1c, 0x00, 0x00, 0x00,
  0x98, 0x00, 0x00, 0x00, 0xf0, 0x00, 0x00, 0x00, 0x14, 0x07, 0x00, 0x00,
  0x24, 0x07, 0x00, 0x00, 0xfc, 0x0b, 0x00, 0x00, 0x03, 0x00, 0x00, 0x00,
  0x01, 0x00, 0x00, 0x00, 0x10, 0x00, 0x00, 0x00, 0x00, 0x00, 0x0a, 0x00,
  0x10, 0x00, 0x0c, 0x00, 0x08, 0x00, 0x04, 0x00, 0x0a, 0x00, 0x00, 0x00,
  0x0c, 0x00, 0x00, 0x00, 0x1c, 0x00, 0x00, 0x00, 0x3c, 0x00, 0x00, 0x00,
  0x0f, 0x00, 0x00, 0x00, 0x73, 0x65, 0x72, 0x76, 0x69, 0x6e, 0x67, 0x5f,
  0x64, 0x65, 0x66, 0x61, 0x75, 0x6c, 0x74, 0x00, 0x01, 0x00, 0x00, 0x00,
  0x04, 0x00, 0x00, 0x00, 0x90, 0xff, 0xff, 0xff, 0x09, 0x00, 0x00, 0x00,
  0x04, 0x00, 0x00, 0x00, 0x08, 0x00, 0x00, 0x00, 0x6f, 0x75, 0x74, 0x70,
  0x75, 0x74, 0x5f, 0x30, 0x00, 0x00, 0x00, 0x00, 0x01, 0x00, 0x00, 0x00,
  0x04, 0x00, 0x00, 0x00, 0xba, 0xf9, 0xff, 0xff, 0x04, 0x00, 0x00, 0x00,
  0x0f, 0x00, 0x00, 0x00, 0x6b, 0x65, 0x72, 0x61, 0x73, 0x5f, 0x74, 0x65,
  0x6e, 0x73, 0x6f, 0x72, 0x5f, 0x31, 0x34, 0x00, 0x02, 0x00, 0x00, 0x00,
  0x34, 0x00, 0x00, 0x00, 0x04, 0x00, 0x00, 0x00, 0xdc, 0xff, 0xff, 0xff,
  0x0c, 0x00, 0x00, 0x00, 0x04, 0x00, 0x00, 0x00, 0x13, 0x00, 0x00, 0x00,
  0x43, 0x4f, 0x4e, 0x56, 0x45, 0x52, 0x53, 0x49, 0x4f, 0x4e, 0x5f, 0x4d,
  0x45, 0x54, 0x41, 0x44, 0x41, 0x54, 0x41, 0x00, 0x08, 0x00, 0x0c, 0x00,
  0x08, 0x00, 0x04, 0x00, 0x08, 0x00, 0x00, 0x00, 0x0b, 0x00, 0x00, 0x00,
  0x04, 0x00, 0x00, 0x00, 0x13, 0x00, 0x00, 0x00, 0x6d, 0x69, 0x6e, 0x5f,
  0x72, 0x75, 0x6e, 0x74, 0x69, 0x6d, 0x65, 0x5f, 0x76, 0x65, 0x72, 0x73,
  0x69, 0x6f, 0x6e, 0x00, 0x0d, 0x00, 0x00, 0x00, 0x20, 0x06, 0x00, 0x00,
  0x18, 0x06, 0x00, 0x00, 0xc8, 0x05, 0x00, 0x00, 0xb0, 0x01, 0x00, 0x00,
  0x9c, 0x01, 0x00, 0x00, 0x4c, 0x01, 0x00, 0x00, 0xfc, 0x00, 0x00, 0x00,
  0xac, 0x00, 0x00, 0x00, 0xa4, 0x00, 0x00, 0x00, 0x9c, 0x00, 0x00, 0x00,
  0x94, 0x00, 0x00, 0x00, 0x74, 0x00, 0x00, 0x00, 0x04, 0x00, 0x00, 0x00,
  0x6a, 0xfa, 0xff, 0xff, 0x04, 0x00, 0x00, 0x00, 0x60, 0x00, 0x00, 0x00,
  0x0c, 0x00, 0x00, 0x00, 0x08, 0x00, 0x0e, 0x00, 0x08, 0x00, 0x04, 0x00,
  0x08, 0x00, 0x00, 0x00, 0x10, 0x00, 0x00, 0x00, 0x28, 0x00, 0x00, 0x00,
  0x00, 0x00, 0x06, 0x00, 0x08, 0x00, 0x04, 0x00, 0x06, 0x00, 0x00, 0x00,
  0x04, 0x00, 0x00, 0x00, 0x01, 0x00, 0x00, 0x00, 0xea, 0x03, 0x00, 0x00,
  0x0c, 0x00, 0x18, 0x00, 0x14, 0x00, 0x10, 0x00, 0x0c, 0x00, 0x04, 0x00,
  0x0c, 0x00, 0x00, 0x00, 0x81, 0x1b, 0xc2, 0x87, 0xbb, 0x96, 0x04, 0x28,
  0x02, 0x00, 0x00, 0x00, 0x02, 0x00, 0x00, 0x00, 0x04, 0x00, 0x00, 0x00,
  0x06, 0x00, 0x00, 0x00, 0x32, 0x2e, 0x31, 0x37, 0x2e, 0x30, 0x00, 0x00,
  0xd6, 0xfa, 0xff, 0xff, 0x04, 0x00, 0x00, 0x00, 0x10, 0x00, 0x00, 0x00,
  0x31, 0x2e, 0x35, 0x2e, 0x30, 0x00, 0x00, 0x00, 0x00, 0x00, 0x00, 0x00,
  0x00, 0x00, 0x00, 0x00, 0xe4, 0xf5, 0xff, 0xff, 0xe8, 0xf5, 0xff, 0xff,
  0xec, 0xf5, 0xff, 0xff, 0xfe, 0xfa, 0xff, 0xff, 0x04, 0x00, 0x00, 0x00,
  0x40, 0x00, 0x00, 0x00, 0x56, 0xf6, 0xaa, 0xbe, 0xe7, 0xae, 0x8e, 0xbe,
  0x09, 0x0e, 0xee, 0x3e, 0xe0, 0x6f, 0x5c, 0xbe, 0x78, 0x12, 0xaa, 0x3e,
  0x2a, 0x41, 0x4f, 0x3e, 0x46, 0xd4, 0x14, 0xbf, 0xd0, 0x52, 0x29, 0x3f,
  0xbd, 0x31, 0xec, 0xbe, 0x2d, 0x8b, 0x11, 0x3e, 0xa8, 0xaa, 0xf6, 0xbe,
  0xf2, 0x59, 0x6e, 0xbe, 0x2b, 0x59, 0x11, 0xbf, 0x08, 0x40, 0xfb, 0xbd,
  0xa2, 0xbc, 0x11, 0x3f, 0x04, 0x82, 0x22, 0xbe, 0x4a, 0xfb, 0xff, 0xff,
  0x04, 0x00, 0x00, 0x00, 0x40, 0x00, 0x00, 0x00, 0x00, 0x00, 0x00, 0x00,
  0x00, 0x00, 0x00, 0x00, 0x58, 0x8d, 0x94, 0xbf, 0x00, 0x00, 0x00, 0x00,
  0x26, 0x03, 0xf2, 0xbe, 0x16, 0x4e, 0xb6, 0xbe, 0x00, 0x00, 0x00, 0x00,
  0x97, 0x8f, 0xa2, 0x3d, 0x00, 0x00, 0x00, 0x00, 0x46, 0x47, 0x3b, 0xbc,
  0x00, 0x00, 0x00, 0x00, 0x00, 0x00, 0x00, 0x00, 0x00, 0x00, 0x00, 0x00,
  0x00, 0x00, 0x00, 0x00, 0x27, 0x00, 0xdb, 0xbd, 0x00, 0x00, 0x00, 0x00,
  0x96, 0xfb, 0xff, 0xff, 0x04, 0x00, 0x00, 0x00, 0x40, 0x00, 0x00, 0x00,
  0xc8, 0xb0, 0x24, 0xbf, 0xb5, 0x41, 0xa2, 0xbb, 0x00, 0x00, 0x00, 0x00,
  0x3b, 0xb5, 0xa0, 0xbd, 0xda, 0x5c, 0x54, 0xbe, 0x00, 0x00, 0x00, 0x00,
  0x94, 0x84, 0xe4, 0xbd, 0x97, 0x29, 0x92, 0xbd, 0x29, 0xeb, 0xac, 0xbd,
  0xc9, 0xf4, 0x84, 0xbe, 0xdf, 0x10, 0xf0, 0xbc, 0x00, 0x00, 0x00, 0x00,
  0xaa, 0x58, 0x05, 0xbf, 0x4a, 0xb5, 0x80, 0xbe, 0x18, 0xf7, 0x91, 0x3e,
  0xa0, 0xc6, 0x0f, 0xbe, 0xe2, 0xfb, 0xff, 0xff, 0x04, 0x00, 0x00, 0x00,
  0x04, 0x00, 0x00, 0x00, 0xab, 0x60, 0xdb, 0xbe, 0xf2, 0xfb, 0xff, 0xff,
  0x04, 0x00, 0x00, 0x00, 0x00, 0x04, 0x00, 0x00, 0x82, 0x21, 0x02, 0xbe,
  0xb8, 0x39, 0x6e, 0xbd, 0xa6, 0xe4, 0xaf, 0x3e, 0x00, 0x27, 0x4c, 0x3d,
  0xd0, 0x52, 0x03, 0x3f, 0x47, 0x64, 0xc6, 0x3c, 0x70, 0xfe, 0x8c, 0xbc,
  0x87, 0x26, 0xbf, 0xbe, 0x8f, 0x9d, 0x86, 0xbe, 0x3f, 0x6a, 0x5f, 0x3e,
  0x82, 0xb5, 0x9a, 0xbe, 0x40, 0xd4, 0xcb, 0xbe, 0xdb, 0xe8, 0xb4, 0x3e,
  0x5c, 0x8f, 0x88, 0xbe, 0x73, 0xfd, 0x8d, 0x3e, 0xe1, 0xeb, 0xd6, 0xbe,
  0x30, 0xdf, 0xd9, 0xbe, 0x45, 0x16, 0x8b, 0x3e, 0x70, 0x34, 0x92, 0x3e,
  0x40, 0x26, 0x13, 0x3d, 0x88, 0xb9, 0xf0, 0xbd, 0x37, 0x0f, 0xab, 0xbe,
  0x50, 0xb2, 0x46, 0xbd, 0x23, 0x5c, 0xbb, 0xbe, 0xaf, 0x35, 0x65, 0xbe,
  0x1e, 0xd2, 0x76, 0xbe, 0xda, 0x95, 0x53, 0x3e, 0x5c, 0x6b, 0xcb, 0x3d,
  0xca, 0xdf, 0x74, 0x3e, 0xbd, 0x49, 0xc3, 0xbe, 0xa2, 0xb2, 0x4f, 0x3e,
  0x82, 0x91, 0x6f, 0xbe, 0x27, 0x52, 0xd5, 0xbe, 0xe0, 0x1b, 0xaf, 0xbc,
  0x88, 0xa8, 0x6b, 0xbd, 0xb5, 0x8a, 0xaa, 0x3e, 0x1e, 0xf8, 0x9c, 0xbe,
  0xed, 0x54, 0xda, 0xbe, 0xe9, 0xdc, 0xc8, 0x3e, 0x2b, 0x19, 0xc7, 0xbe,
  0x96, 0x00, 0x72, 0x3e, 0xe0, 0x45, 0x41, 0x3d, 0xe0, 0x35, 0x1d, 0x3c,
  0x78, 0xd2, 0xee, 0xbd, 0x35, 0x9c, 0x3d, 0xbe, 0x92, 0xca, 0x22, 0x3e,
  0x45, 0x2f, 0xc6, 0x3e, 0xff, 0x86, 0x94, 0x3e, 0x9a, 0x63, 0x73, 0x3e,
  0x72, 0xf9, 0x0f, 0x3e, 0x55, 0x43, 0xf1, 0x3c, 0xc6, 0x44, 0x3f, 0x3e,
  0x3f, 0xa3, 0xb9, 0xbe, 0x68, 0x1b, 0x64, 0x3e, 0xe5, 0xed, 0xb7, 0xbe,
  0xdc, 0x07, 0xf2, 0x3e, 0x9f, 0xa0, 0xca, 0xbe, 0x53, 0x77, 0x81, 0xbe,
  0xe8, 0x42, 0xfb, 0xbd, 0x2c, 0xe6, 0xc0, 0x3d, 0x24, 0x05, 0x6e, 0xbe,
  0xd0, 0x36, 0x9f, 0xbc, 0x8c, 0xf2, 0xa7, 0xbc, 0xba, 0xe3, 0x94, 0xbe,
  0x69, 0x50, 0xc9, 0x3e, 0x88, 0x94, 0x01, 0xbe, 0xeb, 0xac, 0xc3, 0xbe,
  0xbc, 0x60, 0xf0, 0xbd, 0xe5, 0xce, 0x92, 0x3e, 0xeb, 0xd7, 0xb8, 0xbd,
  0xd9, 0x0f, 0xb5, 0x3e, 0xc3, 0x49, 0x4c, 0x3d, 0xd8, 0x6d, 0x5a, 0xbd,
  0x12, 0xc1, 0xd9, 0x3e, 0x1c, 0x0c, 0xf8, 0x3d, 0x40, 0x1f, 0xff, 0xbb,
  0x7c, 0x90, 0x1d, 0xbe, 0x18, 0x58, 0xc3, 0xbd, 0x42, 0x1b, 0xdc, 0x3e,
  0x3f, 0x74, 0xac, 0x3e, 0x00, 0x65, 0x88, 0x3d, 0x96, 0x9d, 0x20, 0xbe,
  0x0e, 0xa0, 0xda, 0xbe, 0xec, 0x4c, 0xab, 0xbd, 0x6f, 0xf1, 0x82, 0x3e,
  0xa8, 0x48, 0x8d, 0xbe, 0x4a, 0x74, 0x10, 0xbe, 0x42, 0x58, 0xb6, 0xbe,
  0x27, 0x1f, 0xcd, 0xbe, 0x23, 0xa9, 0x85, 0xbe, 0xb3, 0x3a, 0x8e, 0x3e,
  0x04, 0x1a, 0xa0, 0x3d, 0xd7, 0x19, 0xb1, 0x3e, 0xa5, 0xbd, 0x96, 0x3e,
  0x90, 0xdf, 0x85, 0xbe, 0x00, 0x20, 0xd6, 0x39, 0x03, 0x6e, 0xca, 0xbe,
  0x10, 0x61, 0x48, 0x3d, 0x66, 0xf8, 0x38, 0x3e, 0x50, 0x47, 0xab, 0xbe,
  0xad, 0x24, 0x1a, 0xbd, 0x3e, 0x1a, 0x86, 0x3d, 0x57, 0xe1, 0x96, 0x3e,
  0x66, 0xee, 0xd3, 0x3c, 0x81, 0xa6, 0xd6, 0x3e, 0x93, 0xaf, 0x1f, 0xbe,
  0x33, 0x0f, 0xbe, 0x3e, 0x10, 0xe7, 0x5e, 0xbe, 0xc5, 0xd7, 0xc4, 0x3e,
  0x60, 0x62, 0x4a, 0x3c, 0xcf, 0xb7, 0xaf, 0x3e, 0x06, 0x05, 0x34, 0x3e,
  0xc6, 0x4a, 0x16, 0x3e, 0x30, 0x33, 0x60, 0x3d, 0x4e, 0x02, 0x73, 0x3d,
  0xe4, 0x31, 0xac, 0x3d, 0x9b, 0x89, 0x04, 0x3e, 0x66, 0xce, 0xca, 0xbe,
  0x15, 0x4e, 0x97, 0xbe, 0xaf, 0x71, 0x95, 0x3e, 0xef, 0xa6, 0x8b, 0x3e,
  0xb6, 0x94, 0x91, 0x3e, 0xb2, 0x51, 0x58, 0xbe, 0x33, 0x19, 0x80, 0x3e,
  0x79, 0x31, 0xd0, 0x3e, 0x53, 0xfa, 0x5f, 0xbe, 0x4d, 0x0d, 0x4e, 0xbe,
  0x48, 0x05, 0x39, 0xbe, 0xcc, 0xa8, 0xa9, 0xbd, 0x64, 0x16, 0xe0, 0xbd,
  0x30, 0x5d, 0x23, 0xbe, 0x9c, 0x6c, 0xd8, 0x3d, 0x40, 0xf6, 0xf9, 0x3d,
  0x4f, 0x6c, 0xd7, 0x3e, 0x96, 0x03, 0x4f, 0x3e, 0x34, 0xfb, 0x2d, 0x3e,
  0x9a, 0xc4, 0x32, 0x3e, 0x7b, 0xe0, 0xa9, 0x3e, 0x8c, 0xee, 0x93, 0xbe,
  0x60, 0x92, 0xa7, 0xbc, 0x79, 0xbb, 0xbe, 0x3e, 0x91, 0x6e, 0x9e, 0x3e,
  0x2f, 0x2f, 0xb5, 0x3e, 0xbe, 0x0b, 0x47, 0x3e, 0x66, 0x49, 0x6a, 0xbe,
  0xab, 0x39, 0xcc, 0x3e, 0xa6, 0x74, 0x98, 0xbe, 0xcc, 0x40, 0x94, 0x3d,
  0xb3, 0x8b, 0xb8, 0xbd, 0x03, 0xbd, 0x2a, 0xbe, 0x90, 0x26, 0xa0, 0xbd,
  0x96, 0x4d, 0x49, 0x3e, 0x44, 0x05, 0x8f, 0xbe, 0xae, 0x6e, 0x54, 0x3e,
  0x9e, 0x96, 0x70, 0xbe, 0xe0, 0x9c, 0xcc, 0x3c, 0x7d, 0x17, 0x8c, 0x3e,
  0x73, 0x1e, 0xb3, 0x3e, 0x87, 0xce, 0xcf, 0x3e, 0x30, 0x5b, 0x51, 0xbd,
  0x92, 0x09, 0x3e, 0xbe, 0x40, 0xc1, 0x6e, 0x3d, 0x77, 0x78, 0x51, 0x3e,
  0x93, 0x31, 0xa2, 0xbe, 0x7a, 0x52, 0x4a, 0x3d, 0xe5, 0x2d, 0xa7, 0xbe,
  0x61, 0xbd, 0xa7, 0x3e, 0x70, 0x07, 0x73, 0x3e, 0xe4, 0xe9, 0xca, 0x3d,
  0x52, 0x1c, 0xed, 0xbe, 0x10, 0xd8, 0x97, 0xbe, 0x14, 0x2a, 0xf1, 0xbd,
  0x3f, 0xce, 0xb7, 0x3e, 0x84, 0xae, 0xb6, 0x3d, 0x43, 0x5b, 0x49, 0x3d,
  0x93, 0xfd, 0xb9, 0xbe, 0xa2, 0xd1, 0x64, 0xbe, 0xb0, 0xa1, 0xbf, 0xbe,
  0xea, 0x33, 0x8d, 0xbe, 0x96, 0x92, 0x46, 0x3e, 0x46, 0xd2, 0x7b, 0x3e,
  0x53, 0x67, 0xd1, 0xbe, 0x8a, 0x1a, 0x31, 0xbe, 0x3c, 0xdd, 0x4e, 0xbe,
  0x1f, 0x1b, 0xb1, 0x3e, 0xa6, 0x4c, 0x88, 0xbe, 0xca, 0x6d, 0xc4, 0xbe,
  0xce, 0x4a, 0x2c, 0x3e, 0x5a, 0x14, 0x4a, 0xbe, 0xf4, 0x1a, 0xdc, 0xbe,
  0x30, 0xf4, 0xd3, 0x3c, 0x00, 0x00, 0x7b, 0xbc, 0x9c, 0xd2, 0xbc, 0xbd,
  0xb0, 0xd3, 0xf2, 0xbd, 0x8e, 0xe4, 0x2b, 0x3f, 0xb7, 0x4a, 0xa9, 0x3e,
  0x28, 0xb2, 0x0a, 0xbe, 0x44, 0xf0, 0x02, 0xbe, 0x75, 0x43, 0xc0, 0xbe,
  0x35, 0xbc, 0x8b, 0x3d, 0x20, 0xb7, 0xd6, 0xbd, 0x5e, 0x0b, 0xcd, 0xbd,
  0x54, 0xc7, 0xc6, 0x3d, 0x60, 0x27, 0x6b, 0xbe, 0xe4, 0xae, 0xa8, 0x3d,
  0x56, 0x1f, 0x1c, 0x3e, 0xbc, 0x52, 0x8e, 0xbd, 0xe0, 0x0e, 0xa4, 0xbd,
  0xdc, 0x21, 0x92, 0xbe, 0x84, 0xa9, 0xa1, 0x3d, 0xb3, 0x3e, 0xd4, 0xbe,
  0x1b, 0x33, 0xa8, 0x3e, 0x78, 0xf6, 0xd9, 0x3d, 0x45, 0x7d, 0x36, 0xbd,
  0x02, 0x5d, 0x17, 0x3e, 0xeb, 0x69, 0xaa, 0x3e, 0xf0, 0x57, 0x4c, 0x3d,
  0x79, 0x46, 0xbc, 0xbe, 0xbc, 0xf8, 0x8c, 0xbd, 0x84, 0x65, 0xb4, 0x3d,
  0xb0, 0x25, 0x2e, 0xbd, 0xea, 0x8b, 0x4b, 0x3e, 0xcf, 0xcf, 0xe5, 0x3e,
  0x57, 0xfd, 0x7b, 0xbe, 0x92, 0x84, 0x49, 0x3e, 0x50, 0x0b, 0x41, 0xbd,
  0x51, 0xe5, 0x6a, 0xbf, 0xf6, 0x9f, 0x07, 0xbe, 0x53, 0x9a, 0x75, 0xbf,
  0xfc, 0x0b, 0xa7, 0xbf, 0xac, 0x8e, 0x90, 0xbd, 0x3a, 0x1f, 0xfd, 0x3e,
  0x30, 0xae, 0xa8, 0xbd, 0x3d, 0x98, 0x75, 0x3e, 0xcd, 0xf5, 0x4f, 0xbe,
  0xc5, 0x89, 0x58, 0xbe, 0x5e, 0x4b, 0x06, 0xbe, 0x46, 0xc5, 0x88, 0xbe,
  0x9e, 0xde, 0x16, 0x3e, 0xa4, 0xae, 0xc9, 0xbd, 0x4a, 0xf6, 0x70, 0x3e,
  0x48, 0xaa, 0xad, 0xbd, 0x9f, 0x7f, 0x12, 0xbe, 0x40, 0x72, 0xda, 0xbe,
  0x06, 0xf3, 0xe1, 0x3e, 0x55, 0x5b, 0x75, 0xbe, 0xf6, 0x50, 0x17, 0x3e,
  0xd0, 0x4c, 0x60, 0x3e, 0x51, 0xcb, 0x9a, 0x3e, 0x83, 0x4d, 0x28, 0xbe,
  0x52, 0x64, 0x51, 0xbe, 0xc8, 0xf9, 0xa4, 0xbd, 0x96, 0xcf, 0x6d, 0x3e,
  0x1c, 0x34, 0x93, 0xbe, 0x83, 0xaf, 0x27, 0x3e, 0x80, 0xe5, 0x38, 0x3b,
  0x00, 0x00, 0x06, 0x00, 0x08, 0x00, 0x04, 0x00, 0x06, 0x00, 0x00, 0x00,
  0x04, 0x00, 0x00, 0x00, 0x40, 0x00, 0x00, 0x00, 0x97, 0x8c, 0xca, 0x3f,
  0x51, 0x55, 0x1e, 0xbe, 0xee, 0x9a, 0x15, 0x3f, 0xc4, 0x1e, 0xff, 0x3e,
  0x42, 0xa3, 0xcf, 0xbe, 0x2c, 0xf6, 0x1b, 0x3e, 0xe7, 0x87, 0x19, 0xbf,
  0x10, 0x7a, 0x3e, 0x3e, 0xc0, 0xe2, 0x80, 0x3e, 0x6d, 0x51, 0x43, 0xbe,
  0x00, 0xaa, 0xde, 0x3e, 0x88, 0xc9, 0x5d, 0x3e, 0x78, 0x18, 0xd4, 0x3f,
  0xf3, 0x24, 0x7c, 0xbe, 0x0b, 0x52, 0xc6, 0x3f, 0x3a, 0x25, 0x53, 0xbe,
  0x44, 0xfb, 0xff, 0xff, 0x48, 0xfb, 0xff, 0xff, 0x0f, 0x00, 0x00, 0x00,
  0x4d, 0x4c, 0x49, 0x52, 0x20, 0x43, 0x6f, 0x6e, 0x76, 0x65, 0x72, 0x74,
  0x65, 0x64, 0x2e, 0x00, 0x01, 0x00, 0x00, 0x00, 0x14, 0x00, 0x00, 0x00,
  0x00, 0x00, 0x0e, 0x00, 0x18, 0x00, 0x14, 0x00, 0x10, 0x00, 0x0c, 0x00,
  0x08, 0x00, 0x04, 0x00, 0x0e, 0x00, 0x00, 0x00, 0x14, 0x00, 0x00, 0x00,
  0x1c, 0x00, 0x00, 0x00, 0xd8, 0x00, 0x00, 0x00, 0xdc, 0x00, 0x00, 0x00,
  0xe0, 0x00, 0x00, 0x00, 0x04, 0x00, 0x00, 0x00, 0x6d, 0x61, 0x69, 0x6e,
  0x00, 0x00, 0x00, 0x00, 0x03, 0x00, 0x00, 0x00, 0x80, 0x00, 0x00, 0x00,
  0x38, 0x00, 0x00, 0x00, 0x04, 0x00, 0x00, 0x00, 0x9a, 0xff, 0xff, 0xff,
  0x10, 0x00, 0x00, 0x00, 0x00, 0x00, 0x00, 0x08, 0x0c, 0x00, 0x00, 0x00,
  0x10, 0x00, 0x00, 0x00, 0xc0, 0xfb, 0xff, 0xff, 0x01, 0x00, 0x00, 0x00,
  0x09, 0x00, 0x00, 0x00, 0x03, 0x00, 0x00, 0x00, 0x08, 0x00, 0x00, 0x00,
  0x01, 0x00, 0x00, 0x00, 0x03, 0x00, 0x00, 0x00, 0xca, 0xff, 0xff, 0xff,
  0x10, 0x00, 0x00, 0x00, 0x00, 0x00, 0x00, 0x08, 0x10, 0x00, 0x00, 0x00,
  0x14, 0x00, 0x00, 0x00, 0xba, 0xff, 0xff, 0xff, 0x00, 0x00, 0x00, 0x01,
  0x01, 0x00, 0x00, 0x00, 0x08, 0x00, 0x00, 0x00, 0x03, 0x00, 0x00, 0x00,
  0x07, 0x00, 0x00, 0x00, 0x02, 0x00, 0x00, 0x00, 0x04, 0x00, 0x00, 0x00,
  0x00, 0x00, 0x0e, 0x00, 0x16, 0x00, 0x00, 0x00, 0x10, 0x00, 0x0c, 0x00,
  0x0b, 0x00, 0x04, 0x00, 0x0e, 0x00, 0x00, 0x00, 0x18, 0x00, 0x00, 0x00,
  0x00, 0x00, 0x00, 0x08, 0x18, 0x00, 0x00, 0x00, 0x1c, 0x00, 0x00, 0x00,
  0x00, 0x00, 0x06, 0x00, 0x08, 0x00, 0x07, 0x00, 0x06, 0x00, 0x00, 0x00,
  0x00, 0x00, 0x00, 0x01, 0x01, 0x00, 0x00, 0x00, 0x07, 0x00, 0x00, 0x00,
  0x03, 0x00, 0x00, 0x00, 0x00, 0x00, 0x00, 0x00, 0x06, 0x00, 0x00, 0x00,
  0x05, 0x00, 0x00, 0x00, 0x01, 0x00, 0x00, 0x00, 0x09, 0x00, 0x00, 0x00,
  0x01, 0x00, 0x00, 0x00, 0x00, 0x00, 0x00, 0x00, 0x0a, 0x00, 0x00, 0x00,
  0x68, 0x03, 0x00, 0x00, 0x10, 0x03, 0x00, 0x00, 0xb8, 0x02, 0x00, 0x00,
  0x7c, 0x02, 0x00, 0x00, 0x40, 0x02, 0x00, 0x00, 0xe8, 0x01, 0x00, 0x00,
  0x98, 0x01, 0x00, 0x00, 0xfc, 0x00, 0x00, 0x00, 0x60, 0x00, 0x00, 0x00,
  0x04, 0x00, 0x00, 0x00, 0xd6, 0xfc, 0xff, 0xff, 0x00, 0x00, 0x00, 0x01,
  0x14, 0x00, 0x00, 0x00, 0x1c, 0x00, 0x00, 0x00, 0x1c, 0x00, 0x00, 0x00,
  0x0a, 0x00, 0x00, 0x00, 0x34, 0x00, 0x00, 0x00, 0x02, 0x00, 0x00, 0x00,
  0xff, 0xff, 0xff, 0xff, 0x01, 0x00, 0x00, 0x00, 0xc0, 0xfc, 0xff, 0xff,
  0x1b, 0x00, 0x00, 0x00, 0x53, 0x74, 0x61, 0x74, 0x65, 0x66, 0x75, 0x6c,
  0x50, 0x61, 0x72, 0x74, 0x69, 0x74, 0x69, 0x6f, 0x6e, 0x65, 0x64, 0x43,
  0x61, 0x6c, 0x6c, 0x5f, 0x31, 0x3a, 0x30, 0x00, 0x02, 0x00, 0x00, 0x00,
  0x01, 0x00, 0x00, 0x00, 0x01, 0x00, 0x00, 0x00, 0x2e, 0xfd, 0xff, 0xff,
  0x00, 0x00, 0x00, 0x01, 0x14, 0x00, 0x00, 0x00, 0x1c, 0x00, 0x00, 0x00,
  0x1c, 0x00, 0x00, 0x00, 0x09, 0x00, 0x00, 0x00, 0x74, 0x00, 0x00, 0x00,
  0x02, 0x00, 0x00, 0x00, 0xff, 0xff, 0xff, 0xff, 0x10, 0x00, 0x00, 0x00,
  0x18, 0xfd, 0xff, 0xff, 0x5a, 0x00, 0x00, 0x00, 0x73, 0x65, 0x71, 0x75,
  0x65, 0x6e, 0x74, 0x69, 0x61, 0x6c, 0x5f, 0x32, 0x5f, 0x31, 0x2f, 0x64,
  0x65, 0x6e, 0x73, 0x65, 0x5f, 0x37, 0x5f, 0x31, 0x2f, 0x4d, 0x61, 0x74,
  0x4d, 0x75, 0x6c, 0x3b, 0x73, 0x65, 0x71, 0x75, 0x65, 0x6e, 0x74, 0x69,
  0x61, 0x6c, 0x5f, 0x32, 0x5f, 0x31, 0x2f, 0x64, 0x65, 0x6e, 0x73, 0x65,
  0x5f, 0x37, 0x5f, 0x31, 0x2f, 0x52, 0x65, 0x6c, 0x75, 0x3b, 0x73, 0x65,
  0x71, 0x75, 0x65, 0x6e, 0x74, 0x69, 0x61, 0x6c, 0x5f, 0x32, 0x5f, 0x31,
  0x2f, 0x64, 0x65, 0x6e, 0x73, 0x65, 0x5f, 0x37, 0x5f, 0x31, 0x2f, 0x41,
  0x64, 0x64, 0x00, 0x00, 0x02, 0x00, 0x00, 0x00, 0x01, 0x00, 0x00, 0x00,
  0x10, 0x00, 0x00, 0x00, 0xc6, 0xfd, 0xff, 0xff, 0x00, 0x00, 0x00, 0x01,
  0x14, 0x00, 0x00, 0x00, 0x1c, 0x00, 0x00, 0x00, 0x1c, 0x00, 0x00, 0x00,
  0x08, 0x00, 0x00, 0x00, 0x74, 0x00, 0x00, 0x00, 0x02, 0x00, 0x00, 0x00,
  0xff, 0xff, 0xff, 0xff, 0x10, 0x00, 0x00, 0x00, 0xb0, 0xfd, 0xff, 0xff,
  0x5a, 0x00, 0x00, 0x00, 0x73, 0x65, 0x71, 0x75, 0x65, 0x6e, 0x74, 0x69,
  0x61, 0x6c, 0x5f, 0x32, 0x5f, 0x31, 0x2f, 0x64, 0x65, 0x6e, 0x73, 0x65,
  0x5f, 0x36, 0x5f, 0x31, 0x2f, 0x4d, 0x61, 0x74, 0x4d, 0x75, 0x6c, 0x3b,
  0x73, 0x65, 0x71, 0x75, 0x65, 0x6e, 0x74, 0x69, 0x61, 0x6c, 0x5f, 0x32,
  0x5f, 0x31, 0x2f, 0x64, 0x65, 0x6e, 0x73, 0x65, 0x5f, 0x36, 0x5f, 0x31,
  0x2f, 0x52, 0x65, 0x6c, 0x75, 0x3b, 0x73, 0x65, 0x71, 0x75, 0x65, 0x6e,
  0x74, 0x69, 0x61, 0x6c, 0x5f, 0x32, 0x5f, 0x31, 0x2f, 0x64, 0x65, 0x6e,
  0x73, 0x65, 0x5f, 0x36, 0x5f, 0x31, 0x2f, 0x41, 0x64, 0x64, 0x00, 0x00,
  0x02, 0x00, 0x00, 0x00, 0x01, 0x00, 0x00, 0x00, 0x10, 0x00, 0x00, 0x00,
  0xb2, 0xfe, 0xff, 0xff, 0x00, 0x00, 0x00, 0x01, 0x10, 0x00, 0x00, 0x00,
  0x10, 0x00, 0x00, 0x00, 0x07, 0x00, 0x00, 0x00, 0x2c, 0x00, 0x00, 0x00,
  0x38, 0xfe, 0xff, 0xff, 0x1f, 0x00, 0x00, 0x00, 0x73, 0x65, 0x71, 0x75,
  0x65, 0x6e, 0x74, 0x69, 0x61, 0x6c, 0x5f, 0x32, 0x5f, 0x31, 0x2f, 0x64,
  0x65, 0x6e, 0x73, 0x65, 0x5f, 0x36, 0x5f, 0x31, 0x2f, 0x4d, 0x61, 0x74,
  0x4d, 0x75, 0x6c, 0x00, 0x02, 0x00, 0x00, 0x00, 0x10, 0x00, 0x00, 0x00,
  0x01, 0x00, 0x00, 0x00, 0xfe, 0xfe, 0xff, 0xff, 0x00, 0x00, 0x00, 0x01,
  0x10, 0x00, 0x00, 0x00, 0x10, 0x00, 0x00, 0x00, 0x06, 0x00, 0x00, 0x00,
  0x38, 0x00, 0x00, 0x00, 0x84, 0xfe, 0xff, 0xff, 0x2b, 0x00, 0x00, 0x00,
  0x73, 0x65, 0x71, 0x75, 0x65, 0x6e, 0x74, 0x69, 0x61, 0x6c, 0x5f, 0x32,
  0x5f, 0x31, 0x2f, 0x64, 0x65, 0x6e, 0x73, 0x65, 0x5f, 0x36, 0x5f, 0x31,
  0x2f, 0x41, 0x64, 0x64, 0x2f, 0x52, 0x65, 0x61, 0x64, 0x56, 0x61, 0x72,
  0x69, 0x61, 0x62, 0x6c, 0x65, 0x4f, 0x70, 0x00, 0x01, 0x00, 0x00, 0x00,
  0x10, 0x00, 0x00, 0x00, 0x52, 0xff, 0xff, 0xff, 0x00, 0x00, 0x00, 0x01,
  0x10, 0x00, 0x00, 0x00, 0x10, 0x00, 0x00, 0x00, 0x05, 0x00, 0x00, 0x00,
  0x1c, 0x00, 0x00, 0x00, 0xd8, 0xfe, 0xff, 0xff, 0x0f, 0x00, 0x00, 0x00,
  0x61, 0x72, 0x69, 0x74, 0x68, 0x2e, 0x63, 0x6f, 0x6e, 0x73, 0x74, 0x61,
  0x6e, 0x74, 0x33, 0x00, 0x01, 0x00, 0x00, 0x00, 0x10, 0x00, 0x00, 0x00,
  0x8a, 0xff, 0xff, 0xff, 0x00, 0x00, 0x00, 0x01, 0x10, 0x00, 0x00, 0x00,
  0x10, 0x00, 0x00, 0x00, 0x04, 0x00, 0x00, 0x00, 0x1c, 0x00, 0x00, 0x00,
  0x10, 0xff, 0xff, 0xff, 0x0f, 0x00, 0x00, 0x00, 0x61, 0x72, 0x69, 0x74,
  0x68, 0x2e, 0x63, 0x6f, 0x6e, 0x73, 0x74, 0x61, 0x6e, 0x74, 0x32, 0x00,
  0x01, 0x00, 0x00, 0x00, 0x01, 0x00, 0x00, 0x00, 0xc2, 0xff, 0xff, 0xff,
  0x00, 0x00, 0x00, 0x01, 0x10, 0x00, 0x00, 0x00, 0x10, 0x00, 0x00, 0x00,
  0x03, 0x00, 0x00, 0x00, 0x1c, 0x00, 0x00, 0x00, 0x48, 0xff, 0xff, 0xff,
  0x0f, 0x00, 0x00, 0x00, 0x61, 0x72, 0x69, 0x74, 0x68, 0x2e, 0x63, 0x6f,
  0x6e, 0x73, 0x74, 0x61, 0x6e, 0x74, 0x31, 0x00, 0x02, 0x00, 0x00, 0x00,
  0x10, 0x00, 0x00, 0x00, 0x10, 0x00, 0x00, 0x00, 0x00, 0x00, 0x16, 0x00,
  0x18, 0x00, 0x14, 0x00, 0x00, 0x00, 0x10, 0x00, 0x0c, 0x00, 0x08, 0x00,
  0x00, 0x00, 0x00, 0x00, 0x00, 0x00, 0x07, 0x00, 0x16, 0x00, 0x00, 0x00,
  0x00, 0x00, 0x00, 0x01, 0x10, 0x00, 0x00, 0x00, 0x10, 0x00, 0x00, 0x00,
  0x02, 0x00, 0x00, 0x00, 0x1c, 0x00, 0x00, 0x00, 0x9c, 0xff, 0xff, 0xff,
  0x0e, 0x00, 0x00, 0x00, 0x61, 0x72, 0x69, 0x74, 0x68, 0x2e, 0x63, 0x6f,
  0x6e, 0x73, 0x74, 0x61, 0x6e, 0x74, 0x00, 0x00, 0x02, 0x00, 0x00, 0x00,
  0x01, 0x00, 0x00, 0x00, 0x10, 0x00, 0x00, 0x00, 0x00, 0x00, 0x16, 0x00,
  0x1c, 0x00, 0x18, 0x00, 0x00, 0x00, 0x14, 0x00, 0x10, 0x00, 0x0c, 0x00,
  0x00, 0x00, 0x00, 0x00, 0x08, 0x00, 0x07, 0x00, 0x16, 0x00, 0x00, 0x00,
  0x00, 0x00, 0x00, 0x01, 0x14, 0x00, 0x00, 0x00, 0x20, 0x00, 0x00, 0x00,
  0x20, 0x00, 0x00, 0x00, 0x01, 0x00, 0x00, 0x00, 0x40, 0x00, 0x00, 0x00,
  0x02, 0x00, 0x00, 0x00, 0xff, 0xff, 0xff, 0xff, 0x01, 0x00, 0x00, 0x00,
  0x04, 0x00, 0x04, 0x00, 0x04, 0x00, 0x00, 0x00, 0x21, 0x00, 0x00, 0x00,
  0x73, 0x65, 0x72, 0x76, 0x69, 0x6e, 0x67, 0x5f, 0x64, 0x65, 0x66, 0x61,
  0x75, 0x6c, 0x74, 0x5f, 0x6b, 0x65, 0x72, 0x61, 0x73, 0x5f, 0x74, 0x65,
  0x6e, 0x73, 0x6f, 0x72, 0x5f, 0x31, 0x34, 0x3a, 0x30, 0x00, 0x00, 0x00,
  0x02, 0x00, 0x00, 0x00, 0x01, 0x00, 0x00, 0x00, 0x01, 0x00, 0x00, 0x00,
  0x01, 0x00, 0x00, 0x00, 0x10, 0x00, 0x00, 0x00, 0x0c, 0x00, 0x0c, 0x00,
  0x0b, 0x00, 0x00, 0x00, 0x00, 0x00, 0x04, 0x00, 0x0c, 0x00, 0x00, 0x00,
  0x09, 0x00, 0x00, 0x00, 0x00, 0x00, 0x00, 0x09
};

#endif //SINE_MODEL_H